TRT-6001-EntropyCalibration2
image: 3caa54fc
189: 3da82926
190: 3e766200
191: 3e1fa67d
192: 3e8a3e72
193: 3e8e2b24
194: 3e73c4c5
195: 3eb45046
196: 3e573bf3
197: 3e1d5298
198: 3e1d5298
199: 3e078d8b
200: 3e562c9f
201: 3dcee4e3
202: 3dfb3de6
203: 3e0f4608
204: 3de59b98
205: 3d4411e8
206: 3dfd3c90
207: 3e215a73
208: 3e215a73
209: 3e02934f
210: 3e451f9a
211: 3e4db09d
212: 3e14340c
213: 3dd2f2b1
214: 3df18afd
215: 3dc9f464
216: 3dd35b4d
217: 3e022c8e
218: 3dcebab4
219: 3d144aa3
220: 3e0f2ef3
221: 3e0f2ef3
222: 3e0a4506
223: 3d6c0989
224: 3dfbf282
225: 3dbd961b
226: 3d69b3ea
227: 3dd05b61
228: 3dc15fe2
229: 3cb39328
230: 3d9ef8b3
231: 3e0a4506
232: 3e0a4506
233: 3d192a41
234: 3dcfd541
235: 3e1cce31
236: 3e0b1b59
237: 3d9df65c
238: 3dcdad9e
239: 3dd495b4
240: 3daa0355
241: 3e07d978
242: 3df97176
243: 3d19ea2a
244: 3dfb34d7
245: 3ded1750
246: 3deb9e9d
247: 3d1afee8
248: 3dbb5cc4
249: 3d9aa125
250: 3d32ca3e
251: 3db4e219
252: 3da6226a
253: 3c8bc2d8
254: 3d80370d
255: 3deb9e9d
256: 3deb9e9d
257: 3cc67b6c
258: 3dbed58e
259: 3e021165
260: 3dfe9d58
261: 3db564ed
262: 3dde5478
263: 3db9d764
264: 3d7c1992
265: 3de3f797
266: 3dd7e842
267: 3d0b05b9
268: 3de05162
269: 3ddc35e0
270: 3dc4fd86
271: 3cd80ab8
272: 3db418fc
273: 3d80f483
274: 3ce82cbf
275: 3db3e249
276: 3daf5b2d
277: 3c41a909
278: 3e158f3c
279: 3dc4fd86
280: 3dc4fd86
281: 3c954425
282: 3e85962e
283: 3e8fcf77
284: 3eab1b4a
285: 3e317e1d
286: 3e1639fe
287: 3e0e08f7
288: 3daf4c88
289: 3e2c9c9f
290: 3db70b66
291: 3c87210d
292: 3e876527
293: 3eac5b07
294: 3f033eac
295: 3f033eac
297: 3d5da9b9
(Unnamed Layer* 108) [Constant]_output: 3bca25de
(Unnamed Layer* 109) [Constant]_output: 3b8648ac
(Unnamed Layer* 110) [Matrix Multiply]_output: 3ddaf088
output: 3dce46b2
(Unnamed Layer* 112) [TopK]_output_1: 3e211893
out: 410e5865
